<unk>	0
<s>	0
</s>	0
▁t	-0
he	-1
▁a	-2
▁the	-3
in	-4
▁o	-5
re	-6
nd	-7
er	-8
▁w	-9
es	-10
ed	-11
en	-12
▁of	-13
on	-14
▁s	-15
is	-16
at	-17
an	-18
▁and	-19
it	-20
or	-21
ar	-22
▁c	-23
▁b	-24
ro	-25
us	-26
▁f	-27
al	-28
ic	-29
▁h	-30
▁to	-31
▁p	-32
▁in	-33
▁A	-34
▁T	-35
ing	-36
▁m	-37
as	-38
▁d	-39
om	-40
ion	-41
el	-42
ent	-43
il	-44
▁l	-45
▁e	-46
th	-47
▁H	-48
▁re	-49
se	-50
▁th	-51
ou	-52
ch	-53
ol	-54
▁g	-55
ad	-56
▁O	-57
▁P	-58
ur	-59
▁he	-60
id	-61
ys	-62
am	-63
ce	-64
ly	-65
et	-66
▁The	-67
em	-68
▁was	-69
od	-70
im	-71
▁n	-72
▁as	-73
▁his	-74
iv	-75
ac	-76
the	-77
ter	-78
le	-79
▁G	-80
▁wh	-81
▁by	-82
▁Od	-83
os	-84
▁C	-85
ysse	-86
▁Odysse	-87
▁that	-88
▁I	-89
▁be	-90
ir	-91
ul	-92
ere	-93
ri	-94
▁M	-95
ith	-96
▁Tro	-97
ree	-98
▁is	-99
ation	-100
▁for	-101
yth	-102
▁on	-103
ans	-104
gh	-105
▁myth	-106
▁with	-107
ct	-108
▁S	-109
▁Gree	-110
▁B	-111
ow	-112
ill	-113
og	-114
ra	-115
rom	-116
▁con	-117
op	-118
ut	-119
est	-120
▁an	-121
▁al	-122
▁Greek	-123
ver	-124
st	-125
▁st	-126
ther	-127
▁k	-128
ical	-129
▁E	-130
and	-131
▁Odysseus	-132
ot	-133
li	-134
▁from	-135
ge	-136
ld	-137
ist	-138
▁(	-139
ve	-140
▁su	-141
▁de	-142
if	-143
▁ex	-144
▁tr	-145
▁were	-146
▁god	-147
▁or	-148
▁po	-149
▁Ach	-150
▁Hom	-151
▁Troj	-152
▁u	-153
ome	-154
olog	-155
▁Homer	-156
ain	-157
res	-158
ae	-159
▁W	-160
cc	-161
▁com	-162
▁1	-163
▁L	-164
ies	-165
▁D	-166
▁it	-167
ition	-168
ud	-169
▁who	-170
ant	-171
ip	-172
ich	-173
▁ar	-174
▁at	-175
pic	-176
ear	-177
▁had	-178
cl	-179
nt	-180
▁pro	-181
ci	-182
ess	-183
ght	-184
ers	-185
red	-186
ay	-187
▁R	-188
ect	-189
ous	-190
her	-191
▁Trojan	-192
ph	-193
pt	-194
um	-195
▁"	-196
ity	-197
our	-198
▁are	-199
▁which	-200
▁him	-201
▁gods	-202
▁their	-203
▁not	-204
all	-205
art	-206
ell	-207
▁se	-208
vent	-209
qu	-210
▁but	-211
so	-212
ave	-213
ive	-214
fter	-215
ame	-216
ord	-217
ult	-218
▁In	-219
▁man	-220
ort	-221
ated	-222
▁whe	-223
▁Odyssey	-224
▁mytholog	-225
▁F	-226
▁N	-227
▁v	-228
rou	-229
ury	-230
illes	-231
▁Troy	-232
▁other	-233
▁r	-234
oll	-235
ost	-236
▁ch	-237
iter	-238
▁Achilles	-239
ary	-240
▁they	-241
ate	-242
aus	-243
hip	-244
ig	-245
emn	-246
urn	-247
▁im	-248
▁sa	-249
ally	-250
ab	-251
ass	-252
ong	-253
ould	-254
ok	-255
pl	-256
ard	-257
ure	-258
ia	-259
pe	-260
ore	-261
▁epic	-262
entury	-263
▁BC	-264
▁Th	-265
▁Her	-266
▁int	-267
▁Homeric	-268
ie	-269
ors	-270
ions	-271
▁them	-272
ations	-273
ak	-274
▁cont	-275
▁have	-276
▁J	-277
▁y	-278
ces	-279
▁kill	-280
▁her	-281
▁ret	-282
▁son	-283
la	-284
gam	-285
▁Hel	-286
pp	-287
ath	-288
eus	-289
ian	-290
ile	-291
▁le	-292
▁war	-293
▁poem	-294
.:	-295
ret	-296
▁wor	-297
adition	-298
ach	-299
▁Ar	-300
▁tw	-301
ence	-302
emnon	-303
▁poet	-304
▁Ili	-305
▁bec	-306
▁hero	-307
▁liter	-308
own	-309
▁ad	-310
ered	-311
▁also	-312
▁tradition	-313
ry	-314
ast	-315
ide	-316
rit	-317
chol	-318
enel	-319
▁stor	-320
▁this	-321
ound	-322
cholar	-323
ording	-324
gin	-325
▁ab	-326
▁ear	-327
▁comp	-328
▁many	-329
▁Achae	-330
▁Helen	-331
▁Iliad	-332
▁after	-333
ccording	-334
▁century	-335
▁mythology	-336
age	-337
▁War	-338
▁imp	-339
▁one	-340
▁Agam	-341
▁part	-342
▁trans	-343
▁Agamemnon	-344
gu	-345
ine	-346
out	-347
▁Tel	-348
oc	-349
ven	-350
▁bo	-351
▁des	-352
▁been	-353
▁king	-354
un	-355
yc	-356
▁Z	-357
ene	-358
hed	-359
tor	-360
ance	-361
ount	-362
then	-363
▁return	-364
▁He	-365
▁ag	-366
ight	-367
▁into	-368
▁myths	-369
▁would	-370
▁killed	-371
ert	-372
ged	-373
irst	-374
ack	-375
rat	-376
clud	-377
ians	-378
▁dis	-379
▁Zeus	-380
cholars	-381
ex	-382
▁2	-383
ely	-384
▁all	-385
cient	-386
▁cult	-387
▁home	-388
▁Athen	-389
ron	-390
▁un	-391
▁gen	-392
rough	-393
▁first	-394
yp	-395
ced	-396
ern	-397
for	-398
ire	-399
ose	-400
▁cl	-401
aris	-402
ious	-403
▁per	-404
▁ver	-405
other	-406
),	-407
hil	-408
les	-409
rib	-410
ual	-411
▁Ap	-412
▁kn	-413
ater	-414
ment	-415
▁att	-416
▁bet	-417
▁then	-418
▁year	-419
fl	-420
een	-421
end	-422
tern	-423
▁Rom	-424
▁und	-425
ather	-426
▁most	-427
▁transl	-428
amp	-429
ext	-430
iod	-431
ish	-432
▁sh	-433
▁sp	-434
▁has	-435
▁some	-436
▁Herac	-437
▁event	-438
av	-439
wn	-440
▁so	-441
ided	-442
▁only	-443
▁over	-444
▁Apoll	-445
▁histor	-446
▁includ	-447
ap	-448
ks	-449
ign	-450
ite	-451
▁ne	-452
▁rec	-453
▁Aene	-454
▁when	-455
▁death	-456
▁poems	-457
▁Trojans	-458
▁through	-459
▁scholars	-460
▁According	-461
ib	-462
ife	-463
▁An	-464
▁Ch	-465
▁tim	-466
ature	-467
▁Athena	-468
ym	-469
▁V	-470
ond	-471
oph	-472
▁el	-473
▁pr	-474
cept	-475
ings	-476
ular	-477
▁reg	-478
▁two	-479
▁Paris	-480
▁gener	-481
▁while	-482
iz	-483
ius	-484
▁en	-485
ised	-486
ived	-487
reat	-488
ures	-489
▁acc	-490
▁tra	-491
ollow	-492
▁epics	-493
▁heroes	-494
▁import	-495
).	-496
au	-497
ik	-498
ful	-499
tle	-500
ween	-501
▁app	-502
▁end	-503
▁rep	-504
▁she	-505
rigin	-506
▁city	-507
▁form	-508
▁land	-509
▁ship	-510
resent	-511
▁found	-512
▁inter	-513
▁there	-514
▁under	-515
▁where	-516
assical	-517
▁between	-518
ag	-519
▁j	-520
elf	-521
ial	-522
ied	-523
ope	-524
ren	-525
ten	-526
ved	-527
▁Al	-528
▁do	-529
▁no	-530
▁sc	-531
▁nar	-532
▁sur	-533
▁desc	-534
▁reli	-535
▁suit	-536
▁became	-537
▁Achaeans	-538
00	-539
ted	-540
▁us	-541
form	-542
land	-543
▁bel	-544
▁div	-545
▁its	-546
▁pre	-547
▁res	-548
ident	-549
uring	-550
▁writ	-551
▁After	-552
▁these	-553
▁ancient	-554
▁Heracles	-555
▁important	-556
ake	-557
flu	-558
ise	-559
old	-560
ped	-561
▁pl	-562
▁up	-563
▁cons	-564
▁expl	-565
▁more	-566
▁took	-567
▁vers	-568
▁Menel	-569
▁Penel	-570
▁Roman	-571
▁about	-572
▁relig	-573
▁years	-574
▁follow	-575
▁Menelaus	-576
ne	-577
ind	-578
▁It	-579
▁lo	-580
▁qu	-581
ates	-582
ides	-583
ject	-584
ough	-585
▁arm	-586
▁ind	-587
▁sub	-588
arded	-589
ector	-590
odern	-591
▁known	-592
▁story	-593
▁world	-594
▁Greeks	-595
▁father	-596
▁narrat	-597
▁origin	-598
▁mythological	-599
ru	-600
fic	-601
led	-602
edes	-603
ists	-604
▁can	-605
▁pop	-606
▁ref	-607
ement	-608
▁both	-609
▁such	-610
▁again	-611
▁influ	-612
▁later	-613
▁Aeneas	-614
▁Hector	-615
▁suitors	-616
▁Penelope	-617
▁literary	-618
▁literature	-619
ub	-620
▁K	-621
act	-622
▁12	-623
ives	-624
pret	-625
ters	-626
▁inv	-627
▁mad	-628
▁off	-629
▁sac	-630
emach	-631
▁This	-632
▁char	-633
▁lead	-634
▁sour	-635
▁surv	-636
▁Apollo	-637
▁compos	-638
▁island	-639
▁Telemach	-640
yl	-641
als	-642
ood	-643
oun	-644
phe	-645
rod	-646
▁As	-647
▁Ph	-648
able	-649
clus	-650
dess	-651
ited	-652
▁Arg	-653
▁ins	-654
▁own	-655
▁rem	-656
▁tal	-657
attle	-658
istic	-659
iving	-660
ought	-661
▁They	-662
▁phil	-663
▁prov	-664
▁text	-665
▁ident	-666
▁events	-667
▁Achaean	-668
▁account	-669
ax	-670
te	-671
eop	-672
uro	-673
uth	-674
vel	-675
▁At	-676
▁By	-677
▁Jo	-678
▁am	-679
▁gu	-680
▁ra	-681
▁ro	-682
angu	-683
ause	-684
ever	-685
ific	-686
ress	-687
▁cre	-688
▁ent	-689
▁may	-690
alled	-691
ample	-692
ished	-693
ities	-694
▁Tele	-695
▁comm	-696
▁said	-697
▁says	-698
▁time	-699
▁belie	-700
▁earli	-701
▁langu	-702
▁poets	-703
▁charac	-704
▁goddess	-705
▁Telemachus	-706
gg	-707
ue	-708
hen	-709
uch	-710
▁Bo	-711
▁ed	-712
▁fe	-713
enae	-714
ince	-715
ural	-716
ycle	-717
▁Ith	-718
▁lik	-719
▁mar	-720
▁pla	-721
ained	-722
▁inst	-723
▁than	-724
▁These	-725
▁advent	-726
▁others	-727
▁describ	-728
▁example	-729
▁interpret	-730
yr	-731
aca	-732
che	-733
der	-734
ean	-735
ens	-736
ild	-737
ked	-738
▁On	-739
arch	-740
iven	-741
orse	-742
read	-743
self	-744
▁For	-745
▁Myc	-746
▁age	-747
▁did	-748
▁dif	-749
▁eit	-750
▁fam	-751
▁hel	-752
▁loc	-753
▁men	-754
▁new	-755
▁sim	-756
ently	-757
round	-758
ually	-759
▁long	-760
▁made	-761
▁stud	-762
▁great	-763
▁ships	-764
▁works	-765
▁Ithaca	-766
▁either	-767
▁period	-768
▁poetry	-769
▁Mycenae	-770
▁language	-771
▁represent	-772
▁historical	-773
".	-774
aw	-775
ts	-776
ang	-777
ann	-778
ily	-779
one	-780
ran	-781
ros	-782
ust	-783
vid	-784
wor	-785
▁18	-786
▁Ae	-787
▁St	-788
▁we	-789
laim	-790
orus	-791
▁Cal	-792
▁Pel	-793
▁how	-794
▁old	-795
▁out	-796
▁rel	-797
ating	-798
ccess	-799
ction	-800
urope	-801
▁Some	-802
▁auth	-803
▁same	-804
roclus	-805
▁child	-806
▁claim	-807
▁Greece	-808
▁against	-809
▁himself	-810
▁popular	-811
▁sources	-812
▁regarded	-813
▁classical	-814
▁translation	-815
ec	-816
ff	-817
uc	-818
ety	-819
ict	-820
ony	-821
ycl	-822
alam	-823
ning	-824
ogra	-825
ried	-826
▁Aph	-827
▁bas	-828
▁exp	-829
▁hum	-830
▁set	-831
▁var	-832
ander	-833
▁Phil	-834
▁even	-835
rodite	-836
▁compl	-837
▁exist	-838
▁often	-839
▁called	-840
▁during	-841
▁mother	-842
▁philos	-843
▁because	-844
▁perform	-845
▁stories	-846
▁subject	-847
▁Aphrodite	-848
▁according	-849
ail	-850
ale	-851
ays	-852
ism	-853
jax	-854
ons	-855
oss	-856
ram	-857
ray	-858
ric	-859
row	-860
ves	-861
▁aw	-862
▁em	-863
ably	-864
ents	-865
riam	-866
ting	-867
▁Pat	-868
▁Per	-869
▁art	-870
▁dec	-871
▁enc	-872
▁spe	-873
rific	-874
▁Ajax	-875
▁Cret	-876
▁Cron	-877
▁book	-878
▁down	-879
▁life	-880
▁well	-881
▁wife	-882
▁Palam	-883
▁Priam	-884
century	-885
▁battle	-886
ological	-887
▁another	-888
▁success	-889
▁Palamedes	-890
▁Patroclus	-891
ef	-892
ns	-893
are	-894
aut	-895
ias	-896
lat	-897
lex	-898
ody	-899
ubl	-900
▁11	-901
augh	-902
eter	-903
gend	-904
irce	-905
less	-906
omen	-907
part	-908
ship	-909
very	-910
ward	-911
zant	-912
▁Ant	-913
▁Hes	-914
▁Man	-915
▁arr	-916
▁ass	-917
▁num	-918
▁ser	-919
ourne	-920
riend	-921
venge	-922
▁Epic	-923
▁arch	-924
▁came	-925
▁disc	-926
▁help	-927
▁prin	-928
▁prob	-929
▁read	-930
▁Circe	-931
▁human	-932
▁texts	-933
▁wound	-934
▁Byzant	-935
▁Cronus	-936
▁journe	-937
▁concept	-938
▁earlier	-939
▁children	-940
▁character	-941
▁adventures	-942
."	-943
du	-944
ep	-945
ix	-946
▁U	-947
aic	-948
apt	-949
ber	-950
emp	-951
hem	-952
hes	-953
its	-954
ium	-955
oct	-956
tis	-957
ull	-958
und	-959
▁La	-960
▁Wh	-961
ants	-962
ared	-963
atin	-964
enth	-965
eren	-966
etes	-967
lish	-968
▁His	-969
▁Joh	-970
▁Pol	-971
▁act	-972
▁bir	-973
▁bro	-974
▁dem	-975
▁led	-976
▁tak	-977
▁unt	-978
ative	-979
aving	-980
ments	-981
ology	-982
▁Alex	-983
▁Neop	-984
▁back	-985
▁cour	-986
▁much	-987
▁oral	-988
▁pers	-989
▁sail	-990
▁sent	-991
▁sign	-992
▁upon	-993
ograph	-994
though	-995
▁Latin	-996
▁among	-997
▁could	-998
▁daugh	-999
▁early	-1000
▁fight	-1001
▁given	-1002
▁local	-1003
▁Thetis	-1004
▁legend	-1005
▁prophe	-1006
▁themes	-1007
▁authors	-1008
▁version	-1009
▁sacrific	-1010
▁versions	-1011
▁including	-1012
▁narrative	-1013
▁religious	-1014
mp	-1015
ov	-1016
oy	-1017
su	-1018
com	-1019
gor	-1020
ier	-1021
man	-1022
ops	-1023
orn	-1024
per	-1025
udi	-1026
▁Cl	-1027
▁De	-1028
▁En	-1029
▁bl	-1030
▁if	-1031
▁sw	-1032
ains	-1033
ites	-1034
lies	-1035
omet	-1036
phus	-1037
uted	-1038
▁Chr	-1039
▁Dem	-1040
▁Hym	-1041
▁Med	-1042
▁abs	-1043
▁add	-1044
▁col	-1045
▁def	-1046
▁sec	-1047
ected	-1048
ellen	-1049
ences	-1050
ortal	-1051
▁army	-1052
▁conc	-1053
▁crit	-1054
▁dead	-1055
▁dest	-1056
▁diff	-1057
▁evid	-1058
▁rece	-1059
▁reve	-1060
▁soci	-1061
▁test	-1062
▁told	-1063
▁what	-1064
ertain	-1065
▁Crete	-1066
▁Cycle	-1067
▁Other	-1068
▁Spart	-1069
▁While	-1070
▁begin	-1071
▁being	-1072
▁place	-1073
▁those	-1074
ational	-1075
octetes	-1076
uropean	-1077
▁Hesiod	-1078
▁Modern	-1079
▁around	-1080
▁consid	-1081
▁contin	-1082
▁modern	-1083
▁partic	-1084
▁traged	-1085
▁Ancient	-1086
▁complet	-1087
▁edition	-1088
▁journey	-1089
▁underst	-1090
▁Telephus	-1091
▁evidence	-1092
▁identity	-1093
▁probably	-1094
▁religion	-1095
▁generally	-1096
▁influence	-1097
▁surviving	-1098
▁Philoctetes	-1099
▁interpretation	-1100
ob	-1101
▁8	-1102
app	-1103
day	-1104
ges	-1105
gil	-1106
ice	-1107
igh	-1108
ios	-1109
iqu	-1110
pit	-1111
▁19	-1112
▁20	-1113
▁Am	-1114
▁ge	-1115
▁me	-1116
ason	-1117
empt	-1118
emus	-1119
ened	-1120
enes	-1121
idon	-1122
ired	-1123
iver	-1124
ivid	-1125
king	-1126
ring	-1127
ript	-1128
ruct	-1129
ured	-1130
used	-1131
▁Pro	-1132
▁Vir	-1133
▁est	-1134
▁fin	-1135
▁fun	-1136
▁imm	-1137
▁lar	-1138
▁pat	-1139
▁wid	-1140
early	-1141
fully	-1142
ggest	-1143
istor	-1144
ossib	-1145
veral	-1146
▁Theb	-1147
▁body	-1148
▁camp	-1149
▁cent	-1150
▁dram	-1151
▁fall	-1152
▁know	-1153
▁last	-1154
▁late	-1155
▁main	-1156
▁make	-1157
▁pass	-1158
▁prom	-1159
▁publ	-1160
▁real	-1161
▁sing	-1162
▁supp	-1163
▁tell	-1164
estern	-1165
▁Arist	-1166
▁depic	-1167
▁earth	-1168
▁explo	-1169
▁horse	-1170
▁never	-1171
▁produ	-1172
▁storm	-1173
▁taken	-1174
▁tales	-1175
▁Hellen	-1176
▁Sparta	-1177
▁Virgil	-1178
▁encoun	-1179
▁attempt	-1180
▁culture	-1181
▁divided	-1182
▁present	-1183
▁several	-1184
▁suggest	-1185
▁thought	-1186
▁whether	-1187
▁writers	-1188
riendship	-1189
▁composed	-1190
▁daughter	-1191
▁Byzantine	-1192
▁described	-1193
▁relations	-1194
▁translations	-1195
",	-1196
11	-1197
ea	-1198
ft	-1199
ky	-1200
yd	-1201
▁5	-1202
ase	-1203
eld	-1204
ica	-1205
ins	-1206
lyt	-1207
mes	-1208
ogn	-1209
par	-1210
rag	-1211
ria	-1212
rie	-1213
roy	-1214
▁ac	-1215
▁es	-1216
▁fa	-1217
▁om	-1218
▁wr	-1219
ades	-1220
aeac	-1221
aled	-1222
anes	-1223
arth	-1224
ched	-1225
fore	-1226
ival	-1227
ness	-1228
onst	-1229
owed	-1230
race	-1231
roup	-1232
soci	-1233
ypso	-1234
▁Mil	-1235
▁Min	-1236
▁any	-1237
▁der	-1238
▁fre	-1239
▁gif	-1240
▁inc	-1241
▁pow	-1242
▁sea	-1243
▁you	-1244
empor	-1245
enced	-1246
estor	-1247
estra	-1248
irect	-1249
ready	-1250
world	-1251
▁Clyt	-1252
▁Pose	-1253
▁When	-1254
▁audi	-1255
▁conf	-1256
▁does	-1257
▁else	-1258
▁full	-1259
▁held	-1260
▁lost	-1261
▁love	-1262
▁pres	-1263
▁used	-1264
▁wall	-1265
▁work	-1266
anding	-1267
odorus	-1268
olemus	-1269
▁Argos	-1270
▁Hymns	-1271
▁along	-1272
▁contr	-1273
▁disgu	-1274
▁estab	-1275
▁every	-1276
▁exped	-1277
▁group	-1278
▁indic	-1279
▁order	-1280
▁quest	-1281
▁since	-1282
▁theor	-1283
▁until	-1284
ividual	-1285
quently	-1286
▁Aeneid	-1287
▁Phaeac	-1288
▁attack	-1289
▁attrib	-1290
▁critic	-1291
▁direct	-1292
▁heroic	-1293
▁likely	-1294
▁should	-1295
▁widely	-1296
emnestra	-1297
▁Alexand	-1298
▁Calypso	-1299
▁already	-1300
▁concern	-1301
▁history	-1302
▁homecom	-1303
▁however	-1304
▁pattern	-1305
▁revenge	-1306
▁Poseidon	-1307
▁mythical	-1308
▁provided	-1309
▁returned	-1310
▁signific	-1311
friendship	-1312
▁Mycenaean	-1313
▁expedition	-1314
▁influenced	-1315
▁particular	-1316
▁composition	-1317
▁traditional	-1318
▁Clytemnestra	-1319
▁relationship	-1320
cy	-1321
gy	-1322
wh	-1323
yn	-1324
▁9	-1325
aly	-1326
cho	-1327
ibr	-1328
ike	-1329
int	-1330
iss	-1331
nds	-1332
ned	-1333
ner	-1334
olk	-1335
▁(1	-1336
▁16	-1337
▁17	-1338
▁Ge	-1339
▁Or	-1340
▁co	-1341
▁gr	-1342
▁sl	-1343
alog	-1344
ames	-1345
elve	-1346
enia	-1347
here	-1348
ield	-1349
imes	-1350
lect	-1351
nown	-1352
odes	-1353
olit	-1354
oman	-1355
orph	-1356
pect	-1357
urip	-1358
vell	-1359
vers	-1360
▁Age	-1361
▁And	-1362
▁Gil	-1363
▁aff	-1364
▁ant	-1365
▁civ	-1366
▁deb	-1367
▁far	-1368
▁fle	-1369
▁med	-1370
▁met	-1371
▁see	-1372
▁sla	-1373
▁too	-1374
▁vis	-1375
▁way	-1376
andra	-1377
assic	-1378
ended	-1379
itual	-1380
ively	-1381
legor	-1382
ogony	-1383
olden	-1384
onaut	-1385
opher	-1386
ophon	-1387
right	-1388
urned	-1389
velop	-1390
▁Cass	-1391
▁Hera	-1392
▁John	-1393
▁Many	-1394
▁Prot	-1395
▁Rome	-1396
▁With	-1397
▁argu	-1398
▁born	-1399
▁each	-1400
▁folk	-1401
▁insp	-1402
▁like	-1403
▁requ	-1404
▁simp	-1405
▁very	-1406
omedes	-1407
ressed	-1408
undred	-1409
urther	-1410
▁Eurip	-1411
▁appro	-1412
▁asked	-1413
▁based	-1414
▁books	-1415
▁guest	-1416
▁mater	-1417
▁times	-1418
▁twent	-1419
▁walls	-1420
ization	-1421
ophanes	-1422
▁Christ	-1423
▁Hermes	-1424
▁associ	-1425
▁cities	-1426
▁compar	-1427
▁divine	-1428
▁except	-1429
▁recogn	-1430
▁result	-1431
▁sailed	-1432
▁scenes	-1433
▁though	-1434
▁twelve	-1435
emporary	-1436
▁Western	-1437
▁brother	-1438
▁certain	-1439
▁claimed	-1440
▁continu	-1441
▁destroy	-1442
▁develop	-1443
▁element	-1444
▁existed	-1445
▁married	-1446
▁scholar	-1447
▁written	-1448
▁Argonaut	-1449
▁Scholars	-1450
▁although	-1451
▁cultural	-1452
▁followed	-1453
▁included	-1454
▁material	-1455
▁remained	-1456
▁Cassandra	-1457
▁Classical	-1458
▁goddesses	-1459
▁performed	-1460
▁Phaeacians	-1461
▁attributed	-1462
▁homecoming	-1463
▁individual	-1464
▁throughout	-1465
▁underworld	-1466
▁Hellenistic	-1467
▁philosopher	-1468
..	-1469
ke	-1470
mm	-1471
ty	-1472
ug	-1473
▁3	-1474
▁4	-1475
▁x	-1476
ace	-1477
aia	-1478
dom	-1479
ele	-1480
ena	-1481
esh	-1482
oic	-1483
ole	-1484
ook	-1485
ris	-1486
rol	-1487
typ	-1488
udg	-1489
ung	-1490
ute	-1491
▁(2	-1492
▁Ad	-1493
▁Di	-1494
▁Id	-1495
▁la	-1496
▁ma	-1497
▁mo	-1498
▁ob	-1499
▁ph	-1500
aded	-1501
agin	-1502
ails	-1503
arry	-1504
athe	-1505
ccur	-1506
eder	-1507
ense	-1508
ethe	-1509
ggar	-1510
ifth	-1511
ilar	-1512
ilus	-1513
ines	-1514
ized	-1515
lato	-1516
ocus	-1517
otus	-1518
ouse	-1519
peci	-1520
ples	-1521
rian	-1522
rote	-1523
rown	-1524
▁(19	-1525
▁Aeg	-1526
▁Eng	-1527
▁Ger	-1528
▁Tit	-1529
▁bow	-1530
▁bur	-1531
▁day	-1532
▁det	-1533
▁few	-1534
▁gra	-1535
▁let	-1536
▁mid	-1537
▁mur	-1538
▁now	-1539
▁par	-1540
▁pur	-1541
▁six	-1542
▁use	-1543
anger	-1544
aused	-1545
erest	-1546
ified	-1547
orted	-1548
rated	-1549
rench	-1550
ution	-1551
▁Arch	-1552
▁Book	-1553
▁Both	-1554
▁Cycl	-1555
▁King	-1556
▁Like	-1557
▁Near	-1558
▁Pent	-1559
▁away	-1560
▁cred	-1561
▁cycl	-1562
▁dist	-1563
▁frag	-1564
▁gave	-1565
▁hand	-1566
▁name	-1567
▁peop	-1568
▁play	-1569
▁prim	-1570
▁prof	-1571
▁side	-1572
▁summ	-1573
▁take	-1574
▁thus	-1575
▁vari	-1576
▁went	-1577
▁will	-1578
astern	-1579
chetyp	-1580
gamesh	-1581
histor	-1582
ibrary	-1583
overed	-1584
▁Jason	-1585
▁Neopt	-1586
▁Plato	-1587
▁Teleg	-1588
▁apple	-1589
▁basis	-1590
▁birth	-1591
▁civil	-1592
▁conqu	-1593
▁court	-1594
▁cycle	-1595
▁famil	-1596
▁fleet	-1597
▁invol	-1598
▁kings	-1599
▁notes	-1600
▁occur	-1601
▁parts	-1602
▁power	-1603
▁somet	-1604
▁tells	-1605
▁three	-1606
▁warri	-1607
▁whose	-1608
▁women	-1609
▁wrote	-1610
ography	-1611
ologist	-1612
▁French	-1613
▁German	-1614
▁Peleus	-1615
▁Romans	-1616
▁Thebes	-1617
▁Titans	-1618
▁allies	-1619
▁antiqu	-1620
▁archae	-1621
▁beggar	-1622
▁caused	-1623
▁danger	-1624
▁having	-1625
▁invent	-1626
▁nature	-1627
▁number	-1628
▁possib	-1629
▁retrie	-1630
▁ritual	-1631
▁second	-1632
▁within	-1633
European	-1634
pecially	-1635
▁English	-1636
▁created	-1637
▁explain	-1638
▁include	-1639
▁refused	-1640
▁society	-1641
▁various	-1642
▁without	-1643
▁Theogony	-1644
▁archetyp	-1645
▁believed	-1646
▁instance	-1647
▁interest	-1648
▁original	-1649
▁received	-1650
▁Christian	-1651
▁Euripides	-1652
▁Gilgamesh	-1653
▁beginning	-1654
▁disguised	-1655
▁following	-1656
▁philosoph	-1657
▁published	-1658
▁associated	-1659
▁considered	-1660
▁eventually	-1661
▁traditions	-1662
▁Apollodorus	-1663
▁Neoptolemus	-1664
▁comparative	-1665
▁contemporary	-1666
▁characteristic	-1667
ds	-1668
fe	-1669
▁'	-1670
▁7	-1671
.":	-1672
aps	-1673
ets	-1674
gan	-1675
get	-1676
iew	-1677
itt	-1678
ndo	-1679
rel	-1680
rew	-1681
rus	-1682
ryg	-1683
sel	-1684
son	-1685
tem	-1686
yal	-1687
ynd	-1688
▁10	-1689
▁23	-1690
▁ep	-1691
▁er	-1692
▁ke	-1693
▁op	-1694
aces	-1695
ages	-1696
aign	-1697
amed	-1698
ante	-1699
ases	-1700
atic	-1701
bert	-1702
chas	-1703
chli	-1704
cial	-1705
enge	-1706
gypt	-1707
haps	-1708
ieth	-1709
ises	-1710
isth	-1711
lied	-1712
omes	-1713
ones	-1714
pher	-1715
pite	-1716
rest	-1717
reus	-1718
side	-1719
stit	-1720
tery	-1721
ught	-1722
ulis	-1723
ylus	-1724
ymph	-1725
▁Cyp	-1726
▁Dac	-1727
▁Emp	-1728
▁Fin	-1729
▁How	-1730
▁Sky	-1731
▁Thr	-1732
▁Var	-1733
▁dev	-1734
▁die	-1735
▁ext	-1736
▁fem	-1737
▁fig	-1738
▁ide	-1739
▁maj	-1740
▁pan	-1741
▁pun	-1742
▁rul	-1743
▁say	-1744
▁sis	-1745
▁ste	-1746
▁sun	-1747
▁voy	-1748
allel	-1749
areus	-1750
aring	-1751
emann	-1752
erent	-1753
hemus	-1754
ictor	-1755
ittle	-1756
known	-1757
ledge	-1758
onian	-1759
thing	-1760
wards	-1761
▁Gaia	-1762
▁Hitt	-1763
▁Jung	-1764
▁Tynd	-1765
▁best	-1766
▁comb	-1767
▁fact	-1768
▁fear	-1769
▁find	-1770
▁give	-1771
▁heel	-1772
▁init	-1773
▁mean	-1774
▁pain	-1775
▁port	-1776
▁pref	-1777
▁prop	-1778
▁quar	-1779
▁reac	-1780
▁rese	-1781
▁rest	-1782
▁sack	-1783
▁sold	-1784
▁sons	-1785
▁spec	-1786
▁spir	-1787
▁true	-1788
▁view	-1789
▁weap	-1790
▁whom	-1791
▁word	-1792
erence	-1793
ficult	-1794
ishing	-1795
isthus	-1796
odotus	-1797
ortals	-1798
selves	-1799
▁Aulis	-1800
▁Egypt	-1801
▁Hades	-1802
▁Polyp	-1803
▁Schli	-1804
▁agree	-1805
▁confl	-1806
▁count	-1807
▁faith	-1808
▁fifth	-1809
▁forms	-1810
▁lands	-1811
▁large	-1812
▁light	-1813
▁lived	-1814
▁night	-1815
▁polit	-1816
▁popul	-1817
▁princ	-1818
▁recon	-1819
▁river	-1820
▁theme	-1821
▁today	-1822
▁woman	-1823
athered	-1824
erences	-1825
▁Dacier	-1826
▁Empire	-1827
▁Helios	-1828
▁Memnon	-1829
▁appear	-1830
▁become	-1831
▁cattle	-1832
▁common	-1833
▁defend	-1834
▁entire	-1835
▁forced	-1836
▁fought	-1837
▁mortal	-1838
▁people	-1839
▁sacred	-1840
▁sister	-1841
▁Another	-1842
▁Calchas	-1843
▁Eastern	-1844
▁Finally	-1845
▁Helenus	-1846
▁Penthes	-1847
▁absence	-1848
▁awarded	-1849
▁believe	-1850
▁classic	-1851
▁control	-1852
▁decided	-1853
▁follows	-1854
▁leading	-1855
▁periods	-1856
▁tragedy	-1857
▁Diomedes	-1858
▁accounts	-1859
▁campaign	-1860
▁earliest	-1861
▁editions	-1862
▁produced	-1863
▁prophecy	-1864
▁rational	-1865
▁subjects	-1866
▁theories	-1867
▁Aegisthus	-1868
▁Tyndareus	-1869
▁antiquity	-1870
▁attempted	-1871
▁describes	-1872
▁destroyed	-1873
▁different	-1874
▁difficult	-1875
▁fragments	-1876
▁knowledge	-1877
▁political	-1878
▁questions	-1879
▁sacrifice	-1880
▁sometimes	-1881
▁twentieth	-1882
▁Polyphemus	-1883
▁Schliemann	-1884
▁characters	-1885
▁encounters	-1886
▁especially	-1887
▁frequently	-1888
▁themselves	-1889
▁Aristophanes	-1890
▁relationships	-1891
▁understanding	-1892
80	-1893
II	-1894
Qu	-1895
mb	-1896
sp	-1897
to	-1898
wa	-1899
yx	-1900
–1	-1901
▁X	-1902
acy	-1903
air	-1904
alk	-1905
aon	-1906
ape	-1907
arl	-1908
awa	-1909
▁	-1910
e	-1911
t	-1912
a	-1913
o	-1914
s	-1915
n	-1916
i	-1917
r	-1918
h	-1919
d	-1920
l	-1921
c	-1922
u	-1923
m	-1924
f	-1925
y	-1926
g	-1927
p	-1928
w	-1929
,	-1930
b	-1931
.	-1932
v	-1933
A	-1934
T	-1935
k	-1936
H	-1937
O	-1938
P	-1939
'	-1940
C	-1941
x	-1942
G	-1943
I	-1944
M	-1945
j	-1946
S	-1947
1	-1948
B	-1949
"	-1950
E	-1951
)	-1952
(	-1953
-	-1954
:	-1955
D	-1956
W	-1957
0	-1958
L	-1959
2	-1960
R	-1961
;	-1962
q	-1963
N	-1964
F	-1965
z	-1966
8	-1967
J	-1968
9	-1969
Z	-1970
—	-1971
4	-1972
5	-1973
7	-1974
3	-1975
V	-1976
6	-1977
K	-1978
–	-1979
U	-1980
é	-1981
/	-1982
ς	-1983
X	-1984
ä	-1985
ö	-1986
α	-1987
λ	-1988
ο	-1989
σ	-1990
τ	-1991
Q	-1992
δ	-1993
ι	-1994
Y	-1995
ü	-1996
