<unk>	0
<s>	0
</s>	0
th	-0
▁a	-1
▁th	-2
▁the	-3
er	-4
▁o	-5
in	-6
es	-7
ed	-8
nd	-9
▁w	-10
en	-11
▁of	-12
on	-13
▁s	-14
▁t	-15
re	-16
▁h	-17
is	-18
▁and	-19
or	-20
an	-21
at	-22
▁c	-23
ar	-24
▁b	-25
ro	-26
us	-27
▁f	-28
al	-29
▁to	-30
▁T	-31
▁A	-32
▁m	-33
ic	-34
▁in	-35
as	-36
it	-37
ing	-38
▁p	-39
▁d	-40
el	-41
il	-42
ion	-43
ent	-44
▁H	-45
ch	-46
om	-47
ur	-48
▁g	-49
▁l	-50
ol	-51
▁e	-52
▁Th	-53
ad	-54
▁re	-55
ou	-56
▁P	-57
▁was	-58
▁wh	-59
id	-60
et	-61
od	-62
am	-63
em	-64
ec	-65
▁his	-66
▁as	-67
im	-68
ter	-69
▁Tro	-70
os	-71
ac	-72
▁G	-73
▁n	-74
yth	-75
ly	-76
iv	-77
▁The	-78
▁myth	-79
▁by	-80
ith	-81
▁C	-82
ul	-83
ir	-84
ce	-85
▁that	-86
se	-87
▁I	-88
▁M	-89
le	-90
ther	-91
ig	-92
og	-93
ill	-94
▁on	-95
▁Gre	-96
▁with	-97
ek	-98
▁for	-99
▁O	-100
ph	-101
ra	-102
ere	-103
▁con	-104
ation	-105
▁S	-106
rom	-107
tor	-108
▁Greek	-109
ys	-110
▁al	-111
ans	-112
ver	-113
▁be	-114
▁he	-115
ow	-116
▁E	-117
ri	-118
ut	-119
▁B	-120
▁Ach	-121
▁(	-122
▁god	-123
▁k	-124
ical	-125
est	-126
and	-127
▁is	-128
▁Troj	-129
▁from	-130
ot	-131
ge	-132
▁an	-133
▁su	-134
ld	-135
▁or	-136
olog	-137
ve	-138
▁her	-139
if	-140
ies	-141
ae	-142
gh	-143
▁were	-144
ain	-145
ers	-146
▁po	-147
▁r	-148
cc	-149
ts	-150
▁u	-151
ess	-152
▁W	-153
▁de	-154
▁ex	-155
▁ar	-156
▁had	-157
▁D	-158
▁at	-159
▁gods	-160
ear	-161
▁it	-162
▁st	-163
▁Trojan	-164
▁com	-165
li	-166
▁R	-167
dys	-168
ted	-169
dysse	-170
▁Odysse	-171
▁L	-172
▁sh	-173
▁1	-174
▁who	-175
illes	-176
st	-177
ud	-178
ich	-179
▁Achilles	-180
▁mytholog	-181
cl	-182
eus	-183
▁Troy	-184
ay	-185
ous	-186
▁Hel	-187
ip	-188
oc	-189
op	-190
▁tr	-191
um	-192
oll	-193
ome	-194
our	-195
ition	-196
▁their	-197
aus	-198
ist	-199
ame	-200
fter	-201
▁man	-202
▁which	-203
▁In	-204
▁Her	-205
▁"	-206
▁N	-207
ord	-208
▁ch	-209
.:	-210
emn	-211
ity	-212
ould	-213
vent	-214
▁him	-215
pp	-216
all	-217
ort	-218
▁Odysseus	-219
igh	-220
omer	-221
▁war	-222
▁kill	-223
qu	-224
▁not	-225
▁pro	-226
▁son	-227
▁Homer	-228
ave	-229
▁hero	-230
▁other	-231
ie	-232
pt	-233
ard	-234
ass	-235
ell	-236
ian	-237
ive	-238
ost	-239
ugh	-240
▁BC	-241
▁they	-242
▁v	-243
▁y	-244
ath	-245
urn	-246
▁are	-247
▁but	-248
▁Helen	-249
ak	-250
ia	-251
▁F	-252
ure	-253
▁mythology	-254
ore	-255
ult	-256
▁se	-257
ary	-258
▁stor	-259
ab	-260
art	-261
ile	-262
oun	-263
▁im	-264
▁le	-265
ated	-266
▁cont	-267
ording	-268
▁Achae	-269
ok	-270
ant	-271
ron	-272
▁Ar	-273
ally	-274
emnon	-275
▁them	-276
▁myths	-277
ccording	-278
so	-279
yc	-280
▁J	-281
ene	-282
ury	-283
▁cl	-284
ence	-285
ough	-286
ound	-287
▁ret	-288
ations	-289
ate	-290
▁sa	-291
▁poet	-292
▁killed	-293
ide	-294
▁un	-295
ight	-296
▁War	-297
▁wor	-298
un	-299
▁Ag	-300
▁many	-301
▁this	-302
▁after	-303
adition	-304
ach	-305
pic	-306
ven	-307
▁ag	-308
▁pl	-309
iter	-310
▁bec	-311
▁also	-312
▁comp	-313
▁have	-314
▁would	-315
own	-316
▁pr	-317
ions	-318
poll	-319
▁all	-320
▁one	-321
▁Agam	-322
▁cent	-323
▁Agamemnon	-324
▁tradition	-325
uc	-326
▁Z	-327
ast	-328
ged	-329
ong	-330
ious	-331
▁ear	-332
ces	-333
les	-334
ret	-335
▁ab	-336
▁ad	-337
▁fa	-338
▁sp	-339
aris	-340
▁des	-341
▁rel	-342
▁Zeus	-343
ry	-344
ack	-345
ors	-346
▁king	-347
▁Apoll	-348
een	-349
▁He	-350
▁tw	-351
enel	-352
▁exp	-353
▁Aene	-354
▁Herac	-355
▁Trojans	-356
ci	-357
ena	-358
clud	-359
▁Rom	-360
▁dis	-361
▁then	-362
),	-363
to	-364
ect	-365
ite	-366
oph	-367
ose	-368
▁ne	-369
ians	-370
▁app	-371
▁imp	-372
▁been	-373
▁Paris	-374
▁liter	-375
ag	-376
hil	-377
ual	-378
ance	-379
▁Ili	-380
▁Tel	-381
▁att	-382
▁cult	-383
▁histor	-384
▁return	-385
▁century	-386
▁2	-387
iod	-388
rit	-389
▁bet	-390
other	-391
▁most	-392
▁year	-393
▁heroes	-394
▁According	-395
▁V	-396
fer	-397
ign	-398
ater	-399
▁gen	-400
▁tim	-401
rough	-402
▁includ	-403
ks	-404
wn	-405
ish	-406
ius	-407
out	-408
▁Ath	-409
▁Hec	-410
▁acc	-411
cient	-412
▁city	-413
▁death	-414
▁event	-415
▁Heracles	-416
ap	-417
fl	-418
iz	-419
age	-420
ine	-421
ips	-422
red	-423
tle	-424
irst	-425
ment	-426
ount	-427
▁land	-428
▁when	-429
▁Iliad	-430
▁found	-431
▁inter	-432
amp	-433
ial	-434
ife	-435
the	-436
▁An	-437
▁bo	-438
ates	-439
ived	-440
▁bel	-441
▁tra	-442
▁und	-443
▁only	-444
▁over	-445
▁poem	-446
▁some	-447
▁took	-448
▁while	-449
▁Achaeans	-450
).	-451
old	-452
ved	-453
vid	-454
edes	-455
reat	-456
▁arm	-457
▁its	-458
▁ver	-459
▁Menel	-460
▁first	-461
▁relig	-462
▁these	-463
▁Aeneas	-464
▁Athena	-465
▁Hector	-466
▁father	-467
▁Menelaus	-468
ym	-469
ely	-470
ert	-471
rib	-472
und	-473
▁Ch	-474
▁el	-475
▁kn	-476
ered	-477
igin	-478
▁hel	-479
▁rec	-480
▁reg	-481
▁rep	-482
ature	-483
ement	-484
▁part	-485
▁sour	-486
▁such	-487
▁Roman	-488
▁again	-489
▁there	-490
▁where	-491
▁Apollo	-492
▁Greeks	-493
yp	-494
ace	-495
end	-496
ire	-497
ten	-498
▁ra	-499
▁up	-500
ised	-501
ular	-502
ween	-503
▁sac	-504
▁sur	-505
esent	-506
▁lead	-507
▁more	-508
▁Homeric	-509
▁between	-510
▁mythological	-511
ct	-512
ib	-513
ake	-514
ced	-515
emp	-516
▁12	-517
▁Wh	-518
▁da	-519
clus	-520
ings	-521
ists	-522
tern	-523
ures	-524
▁has	-525
▁two	-526
ities	-527
ought	-528
▁arch	-529
▁into	-530
▁belie	-531
▁class	-532
▁gener	-533
▁story	-534
▁import	-535
▁Achaean	-536
00	-537
ax	-538
pe	-539
▁K	-540
elf	-541
fic	-542
rod	-543
▁do	-544
▁so	-545
▁us	-546
cept	-547
enae	-548
over	-549
▁end	-550
▁res	-551
▁she	-552
▁sub	-553
attle	-554
▁Tele	-555
▁time	-556
▁After	-557
▁became	-558
▁through	-559
av	-560
dr	-561
ue	-562
yl	-563
▁j	-564
ars	-565
ece	-566
ern	-567
ful	-568
ied	-569
ond	-570
▁Al	-571
▁qu	-572
▁ro	-573
▁sc	-574
chol	-575
dess	-576
ides	-577
orse	-578
▁Arg	-579
▁Myc	-580
▁ins	-581
arded	-582
ollow	-583
ortal	-584
▁comm	-585
▁epic	-586
▁poems	-587
▁poets	-588
▁years	-589
▁events	-590
▁Mycenae	-591
▁Odyssey	-592
ang	-593
eop	-594
ind	-595
ise	-596
led	-597
uro	-598
▁As	-599
▁At	-600
▁dr	-601
▁no	-602
ause	-603
orus	-604
ycle	-605
▁age	-606
▁ass	-607
▁dec	-608
▁giv	-609
▁loc	-610
▁pre	-611
uring	-612
▁cons	-613
▁desc	-614
▁surv	-615
roclus	-616
ughter	-617
▁about	-618
▁earli	-619
▁schol	-620
▁ships	-621
▁world	-622
▁origin	-623
▁ancient	-624
▁goddess	-625
▁sources	-626
▁important	-627
aw	-628
yr	-629
ale	-630
der	-631
▁It	-632
▁en	-633
alam	-634
ever	-635
ided	-636
▁Aph	-637
▁Pel	-638
▁div	-639
▁ent	-640
▁inv	-641
▁mar	-642
▁per	-643
▁pop	-644
ither	-645
▁They	-646
▁form	-647
▁said	-648
▁vers	-649
rodite	-650
▁later	-651
▁either	-652
▁against	-653
▁stories	-654
▁Aphrodite	-655
act	-656
jax	-657
ked	-658
one	-659
ony	-660
uch	-661
▁Or	-662
▁am	-663
▁we	-664
ales	-665
ific	-666
ince	-667
lish	-668
riam	-669
ried	-670
▁Pat	-671
▁bas	-672
▁beg	-673
▁mad	-674
▁new	-675
▁off	-676
▁out	-677
▁own	-678
▁set	-679
ained	-680
ident	-681
istic	-682
rific	-683
▁Ajax	-684
▁Cron	-685
▁Phil	-686
▁chil	-687
▁infl	-688
▁phil	-689
▁same	-690
▁supp	-691
▁Palam	-692
▁Priam	-693
▁great	-694
▁known	-695
▁often	-696
▁Greece	-697
▁battle	-698
▁follow	-699
▁mother	-700
▁literary	-701
▁scholars	-702
▁Palamedes	-703
▁Patroclus	-704
▁according	-705
▁literature	-706
ea	-707
ff	-708
ik	-709
ann	-710
aut	-711
orn	-712
ray	-713
ros	-714
uth	-715
▁aw	-716
▁sl	-717
able	-718
etis	-719
gend	-720
ited	-721
land	-722
▁For	-723
▁Hes	-724
▁art	-725
▁num	-726
▁old	-727
ative	-728
osoph	-729
urope	-730
▁Thes	-731
▁both	-732
▁help	-733
▁repr	-734
▁suit	-735
▁than	-736
▁well	-737
▁writ	-738
▁under	-739
▁works	-740
▁wound	-741
▁Cronus	-742
▁poetry	-743
▁account	-744
▁classical	-745
▁historical	-746
."	-747
lo	-748
te	-749
ub	-750
wh	-751
aim	-752
ays	-753
ber	-754
lat	-755
oct	-756
ove	-757
ran	-758
row	-759
▁18	-760
▁Ph	-761
▁fe	-762
ason	-763
dren	-764
enth	-765
etes	-766
reus	-767
ural	-768
▁Chr	-769
▁dev	-770
▁dif	-771
▁fam	-772
▁hum	-773
▁led	-774
▁rem	-775
round	-776
▁Cret	-777
▁This	-778
▁back	-779
▁came	-780
▁char	-781
▁disc	-782
▁even	-783
▁subj	-784
▁claim	-785
▁fight	-786
▁influ	-787
▁local	-788
▁Thetis	-789
▁advent	-790
▁interp	-791
▁legend	-792
▁others	-793
▁because	-794
▁children	-795
▁daughter	-796
▁sacrific	-797
▁including	-798
▁philosoph	-799
▁represent	-800
ex	-801
mp	-802
eth	-803
ias	-804
ict	-805
oci	-806
ody	-807
ped	-808
ree	-809
rie	-810
ust	-811
wor	-812
ymn	-813
▁On	-814
▁gu	-815
emus	-816
ites	-817
ning	-818
part	-819
phus	-820
self	-821
▁bro	-822
▁did	-823
▁how	-824
▁ind	-825
▁men	-826
▁var	-827
▁wom	-828
ected	-829
iving	-830
ology	-831
▁auth	-832
▁down	-833
▁home	-834
▁sent	-835
▁proph	-836
octetes	-837
▁Hesiod	-838
▁during	-839
▁mortal	-840
▁period	-841
▁themes	-842
▁traged	-843
ological	-844
▁earlier	-845
▁popular	-846
▁Telephus	-847
▁religion	-848
▁Philoctetes	-849
up	-850
yd	-851
dom	-852
ens	-853
for	-854
gil	-855
ins	-856
ope	-857
ric	-858
▁11	-859
▁Am	-860
▁Jo	-861
ened	-862
ogra	-863
read	-864
ress	-865
ting	-866
used	-867
ward	-868
▁His	-869
▁Pro	-870
▁Vir	-871
▁arr	-872
▁may	-873
▁ref	-874
▁tak	-875
acter	-876
ccess	-877
econd	-878
ently	-879
ually	-880
venge	-881
▁Epic	-882
▁Neop	-883
▁Some	-884
▁Theb	-885
▁army	-886
▁body	-887
▁camp	-888
▁dram	-889
▁inst	-890
▁life	-891
▁made	-892
▁wife	-893
ograph	-894
though	-895
▁Other	-896
▁could	-897
▁given	-898
▁horse	-899
▁human	-900
▁ident	-901
▁Virgil	-902
▁island	-903
▁himself	-904
▁suitors	-905
▁thought	-906
▁regarded	-907
▁character	-908
▁religious	-909
".	-910
su	-911
▁8	-912
aic	-913
esp	-914
ety	-915
hip	-916
ice	-917
ily	-918
ism	-919
uct	-920
ull	-921
ves	-922
ycl	-923
▁De	-924
▁sw	-925
arth	-926
ched	-927
ents	-928
erst	-929
iled	-930
iver	-931
ives	-932
omet	-933
ring	-934
▁Min	-935
▁Thr	-936
▁act	-937
▁cre	-938
▁est	-939
▁fun	-940
▁lik	-941
▁pow	-942
▁you	-943
ander	-944
▁Hell	-945
▁Hymn	-946
▁When	-947
▁conc	-948
▁conf	-949
▁cour	-950
▁ever	-951
▁fall	-952
▁love	-953
▁main	-954
▁pers	-955
▁stud	-956
▁told	-957
▁upon	-958
▁wall	-959
odorus	-960
olemus	-961
▁Crete	-962
▁Cycle	-963
▁Penel	-964
▁Spart	-965
▁While	-966
▁among	-967
▁being	-968
▁exped	-969
▁never	-970
▁order	-971
▁sever	-972
▁storm	-973
▁tales	-974
▁those	-975
▁Aeneid	-976
▁compar	-977
▁compos	-978
▁another	-979
▁authors	-980
▁concept	-981
▁culture	-982
▁history	-983
▁success	-984
▁returned	-985
▁Mycenaean	-986
▁interpret	-987
▁expedition	-988
11	-989
ep	-990
gu	-991
ix	-992
yn	-993
▁5	-994
▁U	-995
any	-996
arr	-997
ase	-998
her	-999
iel	-1000
its	-1001
ium	-1002
ons	-1003
oss	-1004
oth	-1005
par	-1006
pir	-1007
udg	-1008
▁20	-1009
▁Ae	-1010
▁Er	-1011
▁em	-1012
▁ep	-1013
▁ga	-1014
▁if	-1015
ades	-1016
ains	-1017
alog	-1018
emis	-1019
enes	-1020
hips	-1021
less	-1022
olit	-1023
ript	-1024
urip	-1025
▁Age	-1026
▁Cal	-1027
▁Med	-1028
▁def	-1029
▁dem	-1030
▁fle	-1031
▁gif	-1032
▁imm	-1033
▁rul	-1034
▁ser	-1035
▁sim	-1036
alled	-1037
ample	-1038
andra	-1039
elled	-1040
itual	-1041
ments	-1042
odern	-1043
ogony	-1044
olden	-1045
onaut	-1046
ready	-1047
▁Cass	-1048
▁Hera	-1049
▁Rome	-1050
▁dest	-1051
▁else	-1052
▁evid	-1053
▁expl	-1054
▁fear	-1055
▁heal	-1056
▁held	-1057
▁long	-1058
▁make	-1059
▁much	-1060
▁narr	-1061
▁pass	-1062
▁ship	-1063
▁sign	-1064
ablish	-1065
ertain	-1066
icular	-1067
inning	-1068
omedes	-1069
▁Eurip	-1070
▁These	-1071
▁appro	-1072
▁based	-1073
▁compl	-1074
▁place	-1075
▁taken	-1076
▁walls	-1077
ization	-1078
uropean	-1079
▁Christ	-1080
▁Hellen	-1081
▁Sparta	-1082
▁around	-1083
▁cities	-1084
▁consid	-1085
▁contin	-1086
▁differ	-1087
▁heroic	-1088
▁provid	-1089
▁though	-1090
▁Ancient	-1091
▁already	-1092
▁describ	-1093
▁however	-1094
▁several	-1095
▁Argonaut	-1096
▁Penelope	-1097
▁discover	-1098
▁evidence	-1099
▁mythical	-1100
▁versions	-1101
▁Cassandra	-1102
▁establish	-1103
▁goddesses	-1104
▁relations	-1105
▁adventures	-1106
▁particular	-1107
",	-1108
..	-1109
ey	-1110
ft	-1111
gy	-1112
ky	-1113
ty	-1114
▁3	-1115
aid	-1116
ail	-1117
air	-1118
aly	-1119
ean	-1120
ica	-1121
ics	-1122
int	-1123
iss	-1124
lyt	-1125
ner	-1126
olk	-1127
ood	-1128
rag	-1129
roy	-1130
ung	-1131
▁Di	-1132
▁Ga	-1133
▁ac	-1134
▁ge	-1135
ably	-1136
ants	-1137
atic	-1138
cent	-1139
ects	-1140
eder	-1141
eter	-1142
etyp	-1143
fore	-1144
gest	-1145
ield	-1146
ilus	-1147
ival	-1148
ivil	-1149
lato	-1150
▁Dem	-1151
▁Joh	-1152
▁Pol	-1153
▁Sch	-1154
▁Tit	-1155
▁abs	-1156
▁aff	-1157
▁bur	-1158
▁der	-1159
▁det	-1160
▁far	-1161
▁few	-1162
▁gro	-1163
▁int	-1164
▁par	-1165
▁pur	-1166
▁unt	-1167
anger	-1168
empor	-1169
estes	-1170
estra	-1171
ially	-1172
isted	-1173
ophon	-1174
ossib	-1175
ounts	-1176
urned	-1177
ution	-1178
▁Clyt	-1179
▁King	-1180
▁Near	-1181
▁Orph	-1182
▁Prot	-1183
▁away	-1184
▁born	-1185
▁dead	-1186
▁folk	-1187
▁full	-1188
▁gave	-1189
▁near	-1190
▁play	-1191
▁pres	-1192
▁rece	-1193
▁sing	-1194
▁used	-1195
▁went	-1196
▁what	-1197
▁Argos	-1198
▁Hymns	-1199
▁Jason	-1200
▁Neopt	-1201
▁Penth	-1202
▁Plato	-1203
▁along	-1204
▁apple	-1205
▁civil	-1206
▁cycle	-1207
▁early	-1208
▁earth	-1209
▁fleet	-1210
▁kings	-1211
▁power	-1212
▁theor	-1213
▁times	-1214
▁warri	-1215
ational	-1216
▁Peleus	-1217
▁Thebes	-1218
▁Titans	-1219
▁allies	-1220
▁attack	-1221
▁contro	-1222
▁danger	-1223
▁except	-1224
▁gather	-1225
▁nature	-1226
▁number	-1227
▁retrie	-1228
▁ritual	-1229
▁sailed	-1230
emnestra	-1231
emporary	-1232
▁brother	-1233
▁concern	-1234
▁continu	-1235
▁example	-1236
▁identif	-1237
▁married	-1238
▁present	-1239
▁prophec	-1240
▁refused	-1241
▁subject	-1242
▁various	-1243
▁version	-1244
▁writers	-1245
▁Theogony	-1246
▁archetyp	-1247
▁believed	-1248
▁Christian	-1249
▁Euripides	-1250
▁influence	-1251
▁surviving	-1252
▁Apollodorus	-1253
▁Hellenistic	-1254
▁Neoptolemus	-1255
▁traditional	-1256
▁Clytemnestra	-1257
▁interpretation	-1258
19	-1259
da	-1260
kn	-1261
ob	-1262
ug	-1263
▁4	-1264
.":	-1265
aca	-1266
awa	-1267
eal	-1268
inc	-1269
itt	-1270
nda	-1271
ndo	-1272
ned	-1273
oan	-1274
ogn	-1275
ook	-1276
pit	-1277
rad	-1278
rew	-1279
rim	-1280
▁19	-1281
▁By	-1282
▁Cl	-1283
▁En	-1284
▁Ge	-1285
▁La	-1286
▁Rh	-1287
▁Sh	-1288
▁St	-1289
▁Ty	-1290
▁co	-1291
▁op	-1292
▁ph	-1293
aign	-1294
ames	-1295
ases	-1296
atin	-1297
chas	-1298
elop	-1299
enia	-1300
esil	-1301
gypt	-1302
idon	-1303
ivid	-1304
king	-1305
liem	-1306
ness	-1307
omes	-1308
owed	-1309
reed	-1310
rown	-1311
ruct	-1312
tery	-1313
ulis	-1314
ured	-1315
ylus	-1316
▁(19	-1317
▁Ith	-1318
▁Lyc	-1319
▁Per	-1320
▁Sky	-1321
▁Var	-1322
▁can	-1323
▁car	-1324
▁col	-1325
▁cul	-1326
▁day	-1327
▁die	-1328
▁ext	-1329
▁gra	-1330
▁inc	-1331
▁let	-1332
▁med	-1333
▁now	-1334
▁pan	-1335
▁sea	-1336
▁sis	-1337
▁sug	-1338
▁too	-1339
▁vis	-1340
▁way	-1341
achus	-1342
ating	-1343
aused	-1344
eenth	-1345
ended	-1346
known	-1347
orted	-1348
tered	-1349
▁Cycl	-1350
▁Gaia	-1351
▁Herm	-1352
▁Hitt	-1353
▁Jung	-1354
▁With	-1355
▁comb	-1356
▁give	-1357
▁hand	-1358
▁heel	-1359
▁last	-1360
▁lost	-1361
▁pain	-1362
▁peop	-1363
▁port	-1364
▁prob	-1365
▁prom	-1366
▁real	-1367
▁sack	-1368
▁sons	-1369
▁temp	-1370
▁thus	-1371
▁whom	-1372
ection	-1373
inally	-1374
lement	-1375
▁Aulis	-1376
▁Egypt	-1377
▁Hades	-1378
▁Latin	-1379
▁Teleg	-1380
▁Telem	-1381
▁Tynda	-1382
▁asked	-1383
▁basis	-1384
▁confl	-1385
▁conqu	-1386
▁count	-1387
▁depic	-1388
▁exist	-1389
▁mater	-1390
▁polit	-1391
▁river	-1392
▁since	-1393
▁three	-1394
▁trans	-1395
▁woman	-1396
century	-1397
ination	-1398
liemann	-1399
▁Ithaca	-1400
▁Memnon	-1401
▁Romans	-1402
▁appear	-1403
▁archae	-1404
▁attemp	-1405
▁caused	-1406
▁detail	-1407
▁divine	-1408
▁fought	-1409
▁inspir	-1410
▁letter	-1411
▁result	-1412
▁second	-1413
▁should	-1414
▁sister	-1415
European	-1416
▁Calchas	-1417
▁Helenus	-1418
▁awarded	-1419
▁believe	-1420
▁certain	-1421
▁claimed	-1422
▁control	-1423
▁decided	-1424
▁destroy	-1425
▁develop	-1426
▁express	-1427
▁leading	-1428
▁revenge	-1429
▁suggest	-1430
▁tragedy	-1431
▁Diomedes	-1432
▁accounts	-1433
▁although	-1434
▁approach	-1435
▁campaign	-1436
▁followed	-1437
▁immortal	-1438
▁interest	-1439
▁material	-1440
▁prophecy	-1441
▁provided	-1442
▁received	-1443
▁remained	-1444
▁signific	-1445
▁Tyndareus	-1446
▁beginning	-1447
▁generally	-1448
▁political	-1449
▁sacrifice	-1450
▁Schliemann	-1451
▁Telemachus	-1452
▁comparative	-1453
▁contemporary	-1454
▁relationships	-1455
II	-1456
aj	-1457
mm	-1458
wa	-1459
–1	-1460
▁7	-1461
▁x	-1462
alk	-1463
aon	-1464
app	-1465
apt	-1466
arl	-1467
cep	-1468
day	-1469
ele	-1470
erm	-1471
ext	-1472
gic	-1473
gor	-1474
his	-1475
ilt	-1476
iop	-1477
ios	-1478
iqu	-1479
ops	-1480
pha	-1481
ria	-1482
rus	-1483
sel	-1484
ula	-1485
urk	-1486
ute	-1487
vel	-1488
ych	-1489
▁(2	-1490
▁23	-1491
▁Br	-1492
▁Re	-1493
▁bl	-1494
▁bu	-1495
▁ob	-1496
aded	-1497
anes	-1498
angu	-1499
bros	-1500
cend	-1501
chis	-1502
esch	-1503
idae	-1504
ilea	-1505
irth	-1506
ized	-1507
lied	-1508
lymp	-1509
odes	-1510
odot	-1511
ogon	-1512
ourn	-1513
ouse	-1514
phig	-1515
rong	-1516
ship	-1517
suwa	-1518
thel	-1519
uced	-1520
ucyd	-1521
ught	-1522
uted	-1523
veal	-1524
ysus	-1525
▁Col	-1526
▁Cyp	-1527
▁Ida	-1528
▁Lyr	-1529
▁Mys	-1530
▁adv	-1531
▁alt	-1532
▁bow	-1533
▁fre	-1534
▁hav	-1535
▁ide	-1536
▁lit	-1537
▁maj	-1538
▁mur	-1539
▁pun	-1540
▁sup	-1541
▁whe	-1542
ached	-1543
acian	-1544
anias	-1545
enced	-1546
enins	-1547
erous	-1548
essed	-1549
estor	-1550
ictor	-1551
ights	-1552
izing	-1553
mmary	-1554
onian	-1555
opped	-1556
orian	-1557
ranus	-1558
rayed	-1559
reted	-1560
theon	-1561
ulner	-1562
where	-1563
world	-1564
▁Arch	-1565
▁Bron	-1566
▁Dion	-1567
▁Germ	-1568
▁Indo	-1569
▁John	-1570
▁Many	-1571
▁Ovid	-1572
▁Pall	-1573
▁Paus	-1574
▁Pose	-1575
▁Prom	-1576
▁Rhea	-1577
▁ages	-1578
▁best	-1579
▁book	-1580
▁coll	-1581
▁cred	-1582
▁crit	-1583
▁desp	-1584
▁does	-1585
▁fell	-1586
▁frag	-1587
▁gene	-1588
▁gift	-1589
▁judg	-1590
▁know	-1591
▁lies	-1592
▁name	-1593
▁oath	-1594
▁requ	-1595
▁role	-1596
▁says	-1597
▁soci	-1598
▁sold	-1599
▁spec	-1600
▁very	-1601
▁weap	-1602
astern	-1603
attern	-1604
enedos	-1605
esilea	-1606
etheus	-1607
guised	-1608
histor	-1609
odotus	-1610
ometim	-1611
rought	-1612
selves	-1613
undred	-1614
urther	-1615
▁Aesch	-1616
▁Horse	-1617
▁Iphig	-1618
▁Italy	-1619
▁Olymp	-1620
▁Since	-1621
▁Varro	-1622
▁beaut	-1623
▁birth	-1624
▁cases	-1625
▁court	-1626
▁every	-1627
▁funct	-1628
▁gives	-1629
▁group	-1630
▁lands	-1631
▁langu	-1632
▁offer	-1633
▁point	-1634
▁quest	-1635
▁recon	-1636
▁saved	-1637
▁steal	-1638
▁study	-1639
▁tenth	-1640
▁until	-1641
▁women	-1642
assical	-1643
erstand	-1644
esilaus	-1645
ividual	-1646
ociated	-1647
ologist	-1648
olution	-1649
quently	-1650
theless	-1651
▁Assuwa	-1652
▁Atreus	-1653
▁Europe	-1654
▁Hermes	-1655
▁Skyros	-1656
▁Thucyd	-1657
▁Uranus	-1658
▁attrib	-1659
▁called	-1660
▁common	-1661
▁defend	-1662
▁entire	-1663
▁family	-1664
▁forced	-1665
▁forces	-1666
▁having	-1667
▁invent	-1668
▁landed	-1669
▁likely	-1670
▁murder	-1671
▁people	-1672
▁possib	-1673
▁prefer	-1674
▁preser	-1675
▁punish	-1676
▁recogn	-1677
▁sacred	-1678
▁scenes	-1679
▁source	-1680
▁tragic	-1681
eninsula	-1682
▁Demeter	-1683
▁Finally	-1684
▁Tenedos	-1685
▁Theseus	-1686
▁archaic	-1687
▁brought	-1688
▁complet	-1689
▁descend	-1690
▁descent	-1691
▁details	-1692
▁element	-1693
▁existed	-1694
▁founded	-1695
▁landing	-1696
▁mortals	-1697
▁periods	-1698
▁sometim	-1699
▁stopped	-1700
▁summary	-1701
▁worship	-1702
ederation	-1703
ulnerable	-1704
▁Dionysus	-1705
▁Poseidon	-1706
▁conflict	-1707
▁earliest	-1708
▁fighting	-1709
▁genealog	-1710
▁included	-1711
▁includes	-1712
▁pantheon	-1713
▁rational	-1714
▁subjects	-1715
▁theories	-1716
▁Herodotus	-1717
▁Iphigenia	-1718
▁Pausanias	-1719
▁attempted	-1720
▁destroyed	-1721
▁elsewhere	-1722
▁Prometheus	-1723
▁generation	-1724
▁individual	-1725
▁influenced	-1726
▁mythograph	-1727
▁themselves	-1728
▁traditions	-1729
▁understand	-1730
▁underworld	-1731
▁Penthesilea	-1732
▁Protesilaus	-1733
▁civilization	-1734
▁characteristic	-1735
by	-1736
ds	-1737
ew	-1738
fe	-1739
iy	-1740
ke	-1741
ll	-1742
sp	-1743
vi	-1744
wr	-1745
xt	-1746
yx	-1747
ze	-1748
äd	-1749
▁9	-1750
Gre	-1751
ape	-1752
auc	-1753
ead	-1754
era	-1755
god	-1756
iev	-1757
iew	-1758
lex	-1759
lic	-1760
ocl	-1761
oco	-1762
ocr	-1763
oet	-1764
ole	-1765
ots	-1766
oub	-1767
ral	-1768
rat	-1769
raw	-1770
rel	-1771
ryg	-1772
uce	-1773
udo	-1774
usb	-1775
ync	-1776
üll	-1777
▁10	-1778
▁AD	-1779
▁Le	-1780
▁Na	-1781
▁Se	-1782
▁ke	-1783
▁ps	-1784
▁sn	-1785
aced	-1786
ages	-1787
ague	-1788
akes	-1789
alia	-1790
amed	-1791
ante	-1792
anus	-1793
arch	-1794
arus	-1795
ased	-1796
asus	-1797
ativ	-1798
bers	-1799
ccur	-1800
ceed	-1801
edip	-1802
eing	-1803
elve	-1804
enge	-1805
eral	-1806
esis	-1807
form	-1808
iety	-1809
ifth	-1810
ilar	-1811
inds	-1812
ined	-1813
ines	-1814
irce	-1815
ired	-1816
iven	-1817
lood	-1818
oned	-1819
ones	-1820
onus	-1821
oral	-1822
ored	-1823
orph	-1824
orth	-1825
oses	-1826
pect	-1827
reud	-1828
rone	-1829
rote	-1830
ryse	-1831
such	-1832
ters	-1833
thus	-1834
ulus	-1835
ving	-1836
ways	-1837
▁211	-1838
▁Aeg	-1839
▁All	-1840
▁And	-1841
▁Art	-1842
▁Bec	-1843
▁But	-1844
▁Cic	-1845
▁Eth	-1846
▁Les	-1847
▁Mus	-1848
▁Pho	-1849
▁Sat	-1850
▁Sto	-1851
▁Sun	-1852
▁Thy	-1853
▁Wes	-1854
▁any	-1855
▁ate	-1856
▁bes	-1857
▁cat	-1858
▁deb	-1859
▁ded	-1860
▁enc	-1861
▁esp	-1862
▁fem	-1863
▁fri	-1864
▁lim	-1865
▁mer	-1866
▁mid	-1867
▁nin	-1868
▁ord	-1869
▁pot	-1870
▁say	-1871
▁six	-1872
▁sla	-1873
▁tre	-1874
▁unc	-1875
▁wed	-1876
▁wid	-1877
Greek	-1878
ading	-1879
allel	-1880
aring	-1881
astic	-1882
elfth	-1883
eller	-1884
emnos	-1885
fully	-1886
iding	-1887
igned	-1888
ioned	-1889
mpire	-1890
ocles	-1891
onius	-1892
ospit	-1893
seudo	-1894
thing	-1895
ument	-1896
wards	-1897
üller	-1898
▁Ares	-1899
▁Both	-1900
▁Burk	-1901
▁Dard	-1902
▁Each	-1903
▁Eris	-1904
▁Most	-1905
▁Soph	-1906
▁Stra	-1907
▁Tart	-1908
▁bath	-1909
▁chie	-1910
▁days	-1911
▁dire	-1912
▁doub	-1913
▁each	-1914
▁	-1915
e	-1916
t	-1917
a	-1918
o	-1919
s	-1920
n	-1921
i	-1922
r	-1923
h	-1924
d	-1925
l	-1926
c	-1927
u	-1928
m	-1929
f	-1930
y	-1931
g	-1932
p	-1933
,	-1934
w	-1935
b	-1936
.	-1937
v	-1938
A	-1939
T	-1940
k	-1941
H	-1942
P	-1943
C	-1944
'	-1945
G	-1946
I	-1947
j	-1948
M	-1949
x	-1950
O	-1951
S	-1952
E	-1953
1	-1954
B	-1955
)	-1956
(	-1957
"	-1958
:	-1959
-	-1960
D	-1961
W	-1962
0	-1963
L	-1964
R	-1965
2	-1966
N	-1967
q	-1968
F	-1969
;	-1970
8	-1971
z	-1972
J	-1973
9	-1974
Z	-1975
V	-1976
3	-1977
5	-1978
7	-1979
4	-1980
K	-1981
6	-1982
—	-1983
–	-1984
U	-1985
ö	-1986
ς	-1987
λ	-1988
X	-1989
ä	-1990
é	-1991
ü	-1992
δ	-1993
ι	-1994
ο	-1995
/	-1996
